0F
0F
C9
13
D3
22
09
F3
E2
33
49
BF
A5
D2
C5
CE
11
0E
35
BF
00
AE
12
0C
22
42
0A
DF
C5
C7
20
0F
8A
D2
FD
E6
B4
FB
D6
F2
D6
C3
06
B2
C9
04
26
DD
FE
F6
95
F6
E4
15
41
96
E9
21
07
CA
E7
C2
1A
FC
05
DC
C7
F0
04
BB
EF
C6
F5
2A
F3
FA
28
4E
F1
DF
B0
C9
F4
2E
4E
07
D4
FF
03
05
27
D1
BE
EA
CA
0C
35
E1
E2
E4
B9
F3
30
CB
1C
B1
D1
F7
9E
C0
F4
F6
C0
0C
A0
F5
E0
C7
ED
20
FE
E3
F1
F9
E8
E8
D3
15
E7
F0
E8
B8
24
D8
0D
EF
C4
9E
3E
13
B2
0D
1E
0C
DB
D9
00
C6
F8
E5
D9
EB
20
FF
C7
E8
04
3E
B3
19
CC
A5
EA
01
3F
CA
D2
10
1A
D4
14
DF
FF
0F
3E
CE
F2
D7
EF
D1
0A
F3
0E
FD
F9
CD
27
C4
04
09
F4
06
26
C7
CE
F4
A3
FF
8B
DA
32
D0
BE
24
31
30
E5
15
C2
01
BF
1E
F7
C2
C6
F1
FE
0D
E1
02
C5
00
D8
FB
A5
DD
EA
12
E8
CC
E7
DA
34
E9
DC
1E
18
BD
EB
FD
E3
11
15
FC
C5
D7
1A
1C
36
FD
D7
1D
F5
E8
CF
D6
D7
CB
20
C2
2B
13
E6
F1
CD
E4
08
D3
D7
1B
1A
0C
06
C7
F8
DD
09
0A
B3
2C
15
E7
DE
0B
2D
03
BD
0A
20
F1
ED
13
33
EB
05
E5
FA
D4
DB
B7
0D
CC
EB
FB
3D
10
04
BC
EA
0E
16
C9
00
16
ED
F9
12
E6
D6
DF
DC
EA
08
EB
DC
01
DC
DD
E7
3B
EE
2A
ED
E4
0C
02
31
0B
38
E8
1D
06
22
D7
E6
FB
1E
EB
F3
21
00
09
4D
D0
1A
24
1B
27
39
13
E2
30
AD
D8
01
E4
13
3E
E9
11
C2
06
2C
D3
04
2A
F1
EA
0E
F6
29
00
4E
27
03
00
58
15
13
12
F4
D8
2A
19
0A
1D
20
EC
12
08
0C
EB
1B
BF
00
0B
E5
06
3D
D5
22
F3
0E
51
39
F4
00
E2
2D
2A
F5
F2
19
3B
F7
12
19
2F
2A
1F
13
39
0C
04
03
D0
D5
26
F9
F7
2B
FD
10
EC
E1
B8
13
1C
44
0B
EB
FC
02
30
29
09
D5
FA
28
D9
24
0B
18
DE
12
02
3E
E3
21
24
EE
E7
1C
DC
38
1F
D1
1C
0C
2C
FB
07
1C
2E
C6
1F
D8
EB
F7
07
06
CD
F1
28
C3
F2
D7
19
05
F8
FB
FF
E4
02
C9
FD
11
1F
F2
15
18
06
0B
DF
0B
2C
F9
0B
E6
EF
23
1C
D6
29
46
27
3F
F3
CE
1C
15
E7
05
10
F0
35
FD
3D
16
03
FA
0B
DF
EA
0D
01
35
FD
0E
CC
08
00
F7
F7
EA
1D
23
15
FF
3C
01
0C
DD
D8
B7
D5
F5
0C
26
22
11
02
FE
FE
FB
EB
0C
15
0C
F8
0E
0C
36
37
10
1F
FC
15
06
FA
22
0A
24
07
D5
25
C1
F2
03
F6
E4
12
FB
04
41
11
11
04
2D
0A
FB
35
0C
F4
D0
01
FA
35
36
E2
F2
25
F5
FA
08
0A
E7
17
13
48
E8
EB
05
28
D6
D2
FD
E8
15
ED
C6
ED
08
18
FC
28
EE
1D
06
FE
09
F9
1B
FD
11
F9
0A
F9
DF
14
11
2B
05
EF
0A
BF
04
F8
EF
20
08
EB
41
1A
09
FF
1B
0E
05
FE
0F
F9
0D
FA
2A
10
06
EC
05
0A
07
C9
42
1B
C2
F7
32
00
F1
39
3B
EE
1B
FD
08
F6
FB
11
06
FB
F9
FF
19
E3
25
07
F9
29
10
37
0C
EA
F7
D6
2B
D8
FB
D7
01
F6
FF
DE
22
09
E5
DB
F6
37
02
F1
0C
FA
15
0D
FE
F0
29
E7
EF
16
23
EB
E9
F5
09
53
EA
38
07
0D
12
58
03
28
12
E5
F6
28
FE
FF
D3
EC
20
E0
25
2A
CC
05
E5
FA
FF
E5
E9
15
3B
AB
E3
1B
09
EE
06
09
35
0C
09
F7
C8
27
E1
1B
16
13
05
F0
3E
2F
22
18
00
D6
26
29
F2
1A
0E
FF
FB
EC
22
BB
3E
F4
FA
EF
23
D9
06
09
08
21
16
1A
D0
F8
EA
10
0D
04
07
1B
FD
24
20
22
1B
07
19
FA
14
20
06
F1
DC
F6
11
1E
12
16
19
F8
01
F8
0D
03
2A
10
02
09
FE
FF
01
0A
E9
3F
F4
DB
04
14
39
FD
15
F1
1D
F5
01
FE
18
EC
14
F2
20
00
EC
26
0C
15
1E
EE
F5
E4
13
15
E2
F3
35
0B
FA
C7
15
1D
3C
28
ED
3D
12
F9
04
F2
1B
0F
D9
EF
02
17
FC
C9
1A
EF
3F
1A
04
45
11
05
07
FB
1E
EF
07
03
BD
3D
EF
FD
19
31
0D
08
EF
C0
15
F9
F0
EE
29
F4
FE
0D
F1
14
51
01
F2
16
E5
EE
FC
00
EE
0D
E3
01
1B
0C
0B
FE
ED
0D
D3
00
F1
17
DD
F1
51
EA
35
36
DF
13
29
EC
EA
17
0A
04
18
2D
04
26
1F
FA
E7
CA
1B
E5
29
55
F2
19
00
0A
0E
F9
12
1A
1B
03
E5
19
DD
E9
D8
F6
F0
24
D9
33
C9
35
1A
F6
0E
E9
22
FC
25
19
D7
EA
14
39
11
FE
DA
DC
F0
F7
20
1A
13
14
F8
12
F2
EB
D4
D9
15
18
23
F1
16
19
00
31
F0
0F
2A
DF
28
23
0E
E6
1E
19
17
FB
03
DA
E3
07
3E
03
10
F2
FA
F0
26
EE
EB
39
0E
10
15
B8
17
2A
D7
1D
30
2B
F2
54
0A
12
27
ED
22
1A
04
12
12
ED
1C
F1
EB
1C
EC
F6
1C
1C
FD
0B
19
CD
EE
05
00
E0
F0
09
EB
EE
E1
25
2A
0E
0F
04
0E
EB
F2
E2
28
1A
0D
09
D7
0D
1F
E4
09
28
F0
0F
FE
30
06
FF
02
FF
1C
0D
30
D3
CC
EE
FD
CF
0F
02
0B
1D
DC
E3
F0
14
00
05
DF
04
21
43
04
DF
ED
0D
20
F6
18
1F
DA
17
F1
E2
D2
11
28
1F
EE
FE
35
21
0B
16
D2
E2
08
1B
16
04
24
EA
1B
02
F5
16
C8
19
20
2E
1C
17
0F
12
19
FA
F8
FF
14
DD
11
0E
07
E1
25
14
07
FF
0E
C6
08
F4
E6
06
E5
FF
D0
1A
E6
24
05
F1
0D
02
0B
2D
14
F6
17
F7
0B
20
DE
3C
E1
2C
19
08
4B
0A
FF
FB
24
00
E1
E5
0C
21
FF
19
23
D5
34
F9
EE
F0
F8
F4
F8
13
EE
10
D9
04
E5
23
E4
F5
0E
23
0C
2B
F5
FD
0D
09
02
08
42
EA
21
06
17
EE
24
EF
21
D9
2A
E5
12
1C
F1
23
F4
E3
15
18
EF
19
FD
E6
1A
2D
F7
FF
1C
3F
1E
09
C7
03
0C
17
01
E6
1A
42
20
FC
DC
EC
0B
EF
04
E8
0E
C1
01
0B
0A
07
33
EC
EF
F6
00
1B
2A
EB
ED
D1
09
E4
2C
02
0C
0B
03
2A
E3
FE
1B
02
36
27
C2
1B
FF
32
2A
21
2E
DC
0A
F4
13
02
F4
E5
2C
03
0F
35
1B
F1
D5
DA
18
FF
01
19
F0
FB
07
1D
14
FC
F4
0D
E6
10
FF
FF
2F
1C
06
05
33
F7
64
08
05
EA
F1
03
D9
08
13
F0
16
F5
04
14
28
06
04
E4
35
ED
0B
01
2A
23
16
E8
15
CB
0C
11
CE
FB
11
FD
F4
19
2B
1E
D7
DD
02
0D
1D
E3
F7
F3
1B
13
EA
FC
0F
06
CA
3E
1F
36
19
FF
ED
ED
03
10
02
FB
1D
EC
05
F4
F6
0B
FD
0B
01
01
32
E9
FF
F2
19
CD
E3
15
15
30
03
F5
F1
F2
27
1D
EF
14
22
27
02
ED
24
E9
12
02
0E
EC
FF
0E
13
F0
FE
32
02
E1
29
F1
2D
02
F5
25
F6
0C
11
23
F3
01
24
E9
FD
11
06
0C
21
18
EE
F8
DD
05
24
0E
05
0D
42
F7
32
F6
0B
D3
F7
05
08
F3
E9
06
1C
34
1B
E9
14
3E
14
07
0A
08
DC
0B
11
1C
EA
E0
00
15
E7
12
E3
EC
EA
01
05
03
F4
F4
18
01
34
1D
FA
EA
F9
07
22
13
0E
DA
13
F8
28
1E
FE
19
E2
ED
03
EF
3D
1F
0F
CB
10
1E
13
FA
30
01
31
27
07
D2
06
E4
E0
F8
F9
3B
F9
11
12
07
F9
F2
E2
FC
05
03
EF
0F
2C
FF
0E
00
14
FD
EE
0F
08
00
F6
00
ED
F6
EC
FF
1F
F0
00
04
06
C9
F3
FE
05
FD
F1
31
21
DD
0F
09
20
0A
0E
FB
03
EB
31
0E
FB
3E
08
F9
14
FE
06
08
36
3F
FA
01
EA
16
EE
DD
F8
E1
05
07
EC
24
15
1F
09
21
E8
F4
0D
2E
FE
ED
1C
14
F3
FF
EE
ED
EE
00
28
0F
07
39
BA
F7
DE
12
0A
18
FF
F5
2D
EE
01
E2
07
F1
0F
04
F5
22
13
FC
31
F6
38
3C
2B
ED
03
1C
FB
EB
10
21
2A
E8
F5
E4
F5
03
2F
EB
03
36
01
0A
15
F6
F8
1F
3A
05
E4
DD
FA
0C
04
1D
DA
0C
07
38
ED
08
EA
27
07
21
3D
0A
11
0F
0B
F1
19
F5
26
06
FF
F0
04
05
24
EE
31
E5
24
0A
02
F9
0F
CD
F6
18
0F
EA
39
EE
F3
EB
EE
FB
D4
0E
FF
27
0B
EB
08
FF
0C
1B
15
06
25
00
EE
10
02
16
FF
26
17
19
DD
FE
F3
05
F3
E2
FF
2A
04
F8
2B
18
11
FF
FF
FA
03
EA
13
FA
0B
01
F8
E9
20
14
19
29
1A
14
F6
28
07
F4
00
FA
01
F0
FF
11
1B
36
F8
FB
19
D3
F9
0A
09
EB
04
02
1D
EE
FE
EB
0D
15
F8
0C
27
33
23
0A
10
27
FD
0F
04
FF
28
0E
1D
FD
EB
1E
F2
EF
0E
EF
0C
16
FB
F3
E9
E6
E7
21
01
D6
34
4C
1F
16
1C
F8
1B
D4
1C
09
D5
E2
EA
19
EA
E4
03
ED
FC
E6
09
03
FD
EF
1A
F9
2B
DF
ED
0A
F6
FF
E3
19
04
FD
10
4D
08
0C
F9
01
ED
F2
E3
08
F5
17
35
17
03
3C
14
10
15
0C
10
09
BC
30
F9
F0
D5
EE
E0
1E
DE
27
06
0D
0B
1B
03
F2
0A
0C
0A
22
E1
44
1A
17
03
2D
10
FC
1A
E3
1C
15
D3
F3
29
F7
F0
F2
06
0F
02
F6
FD
F3
0E
E4
C8
06
EE
FF
FE
DD
0B
19
1E
03
E6
F9
1D
09
21
F8
F4
DA
FF
EC
FF
1B
13
2C
1A
0A
37
F6
22
04
F6
F7
04
11
04
1E
1C
2B
0C
06
1E
06
1D
FE
02
20
E2
39
F1
1D
09
E3
F8
ED
EC
2A
4E
00
1F
06
14
F8
18
FF
23
02
E3
0F
1C
18
1E
07
0B
05
07
DC
D1
32
FD
06
DD
FF
F6
3A
ED
FC
F5
13
CF
13
FC
FF
03
38
F9
DC
F7
2E
22
08
13
FA
1B
E8
E1
0A
18
E9
1E
E2
0F
03
11
24
04
00
F7
46
FF
0D
F6
04
E4
05
20
F2
F5
2E
19
17
F0
F4
10
03
06
F1
EC
01
1A
2D
F2
0B
DD
E8
16
0C
05
FD
FE
0E
F7
1C
EC
19
01
09
33
3D
DB
2E
16
E8
FC
07
0D
F2
06
D4
1F
21
20
0B
0D
1F
D8
FF
06
F8
FD
06
E8
FB
1E
CF
D6
01
0C
FB
D0
09
01
13
15
00
07
0D
D9
0D
2A
1E
13
DD
EB
2E
01
2A
11
10
10
08
EB
45
2C
57
1B
16
14
C2
36
E3
CE
0A
19
26
0B
E4
05
FF
0F
F2
EB
00
10
08
11
1C
02
00
EF
06
E9
EF
12
ED
23
33
07
1B
07
2A
FE
F6
0E
19
D9
DE
1B
0C
27
06
2B
F5
FC
E3
F6
27
0C
1E
0B
FA
02
2C
E2
E0
22
09
08
0C
05
2A
FA
27
1D
0F
EF
1D
E7
0E
24
07
0D
0E
F9
02
12
FB
0E
01
ED
F4
00
01
E3
22
E3
EE
C8
06
0B
22
2F
0A
0F
02
23
F3
FF
0E
EF
EC
1D
12
F2
09
2E
1E
0F
FD
FC
FC
0F
29
EA
E3
F5
EA
38
20
F0
E4
E2
2B
1B
06
F3
3F
20
08
FD
17
03
02
F1
01
FD
EB
D6
05
E2
F2
12
0B
FB
00
47
1D
D3
E4
07
ED
DC
04
06
F4
13
FE
0C
0C
F6
F9
F5
EC
07
27
24
1D
0D
0B
27
E7
06
04
14
ED
1F
E7
FE
F4
35
FE
33
1B
DF
DD
2C
0B
0A
2B
F4
14
02
10
E4
01
F4
EC
02
18
14
F6
F6
14
00
0F
E4
FE
2E
FA
40
17
22
EE
1E
06
0A
1B
D9
06
F6
3A
12
F8
08
FE
F4
05
F4
13
0F
15
3B
EC
0A
19
04
07
1A
0E
0B
19
03
FF
1A
2A
01
06
10
1E
18
FC
0A
08
FA
D9
CA
E7
F5
1B
09
49
09
0D
12
F9
F8
19
22
06
DD
D0
F7
EE
10
F5
F2
1C
BC
DD
FC
1B
1C
32
18
2E
01
38
D5
2E
28
FC
E8
F1
05
18
FA
22
FC
11
2A
0D
DD
F9
24
E8
00
D8
FD
0E
D2
D0
F2
2C
F5
00
07
24
D1
18
FA
13
14
EB
2E
10
09
3D
EE
ED
EF
04
07
13
1C
EE
06
16
DB
E7
03
2E
14
03
DB
0E
DA
0C
2B
E9
E8
28
02
11
06
14
1D
23
E3
11
01
2F
16
E5
F0
EC
4F
13
15
F4
05
1C
07
EF
1A
31
CD
18
0B
23
FA
F2
29
F2
0A
22
1C
DE
DD
11
EC
02
09
0E
FF
F2
D5
0D
2C
25
F3
DB
17
14
F4
1E
14
14
0B
F8
05
21
FD
0E
FA
3D
29
F1
1B
3B
03
05
FF
01
33
DB
DD
0C
18
0D
2A
0B
F7
FD
04
26
F2
F8
15
1D
16
0C
FF
07
F1
F8
FC
0E
D3
FC
0A
07
F6
F8
10
E8
09
CE
09
0B
F1
10
11
17
FC
E8
0E
02
1B
0E
0B
01
1E
FA
20
20
3C
DF
C9
FC
0D
0D
D5
3A
FB
00
08
0B
E6
E4
28
16
D3
03
1D
16
31
04
FA
E1
0E
E7
21
04
EC
FD
07
FA
E3
F6
FA
E2
09
FD
1A
E3
FC
FD
FD
22
FA
F0
1E
2F
FB
31
1A
04
0A
20
F2
EE
0C
1E
38
17
0C
0C
ED
F2
04
FB
1C
EF
EC
F4
11
EA
DB
1B
FF
1E
2D
EB
ED
FF
0E
0C
17
01
FE
DB
E0
0B
1F
0D
0B
03
0C
0D
F1
12
41
0C
11
DD
D8
07
06
0A
DE
F2
0D
24
FA
FB
FC
EE
18
0F
34
22
D2
FA
0E
00
27
0B
2F
ED
24
30
0A
10
41
1B
12
E9
EC
34
E2
C9
E1
27
2E
1A
DF
11
15
F8
0B
26
EC
08
15
E5
E2
0C
20
F2
EB
12
14
FB
F1
02
D9
2A
02
FF
EF
CB
02
0D
06
0A
F6
F0
55
F9
32
FA
16
17
EF
18
26
F2
08
0F
29
D7
0E
EC
04
E0
E8
CF
1D
09
09
43
00
16
0A
D9
0D
F0
F3
24
2E
25
F6
13
04
2B
E7
0C
19
FA
EC
1A
FE
0A
08
25
ED
0E
0F
11
FF
0B
21
04
CE
F1
14
F8
0C
3D
EF
18
03
F7
0B
02
E3
21
FC
07
27
FA
D5
05
13
34
0E
22
17
F9
DB
03
F4
F7
01
20
27
E7
18
13
19
4E
F3
08
EE
E1
EC
1A
F7
F3
DE
F6
EC
FD
E5
04
FA
E8
F9
19
1B
F8
02
0F
25
F6
F3
0B
13
F9
F9
EC
02
F5
1E
F4
09
22
E4
FF
15
31
F4
07
1E
17
0C
F6
28
FA
F7
FE
0A
02
14
E3
23
01
11
12
0C
F8
05
EF
03
FB
29
01
DE
08
25
E2
19
F9
34
07
07
EF
D0
03
F9
14
03
26
11
43
05
0A
31
0B
14
FE
09
EE
1D
2F
1C
07
1B
19
10
09
E5
1A
F2
14
18
1D
FB
14
07
16
F8
07
22
D0
23
DE
EF
1A
1D
06
0A
F7
21
F0
E9
EF
14
01
FA
19
09
EA
01
10
1E
01
F6
ED
F9
20
10
FD
0F
FA
0F
F2
41
3F
FC
0B
1B
D9
A7
1C
32
2B
FC
03
19
F9
FA
DF
18
E7
0E
14
FC
D1
E9
25
F2
3A
10
E5
F5
FA
ED
00
1A
0F
0B
48
17
FB
F5
F7
24
E7
E6
25
1C
30
03
11
E2
44
22
FA
FD
F7
20
E8
F6
F4
12
03
22
EF
F8
17
07
D6
FD
35
E8
FA
08
18
08
E4
1E
DE
03
01
3C
0C
F0
ED
F8
F8
04
22
1B
04
19
11
16
12
06
E2
22
21
FE
01
07
F8
10
FE
03
EA
07
FE
FE
FC
03
EF
1F
04
E4
09
D7
23
F5
E9
09
1F
19
04
14
14
38
0B
10
40
12
E3
30
FC
1D
FE
23
30
0C
DC
04
F4
0A
EA
16
15
24
D3
0B
D9
F2
01
E2
DD
25
03
31
FE
D2
F8
D6
1E
47
09
1F
DD
11
CF
FB
FD
FD
28
FF
FB
10
0D
0D
1A
ED
01
E2
18
D7
0A
F2
18
24
F7
F0
FA
1D
EF
F4
21
13
1A
26
DC
EB
E8
3F
04
00
F4
1B
EE
08
1D
06
21
FB
20
F7
28
FC
F9
F1
22
0A
EF
F1
22
F9
FA
F6
2D
F2
29
1C
E8
14
15
12
29
28
0A
02
25
FE
4A
35
F7
04
20
E1
19
DB
EF
F4
06
19
0B
D7
FF
31
20
1E
14
1A
C2
20
03
EA
06
DB
F0
FA
0D
0F
E9
F0
26
F0
30
08
EB
E3
26
FC
FF
02
01
16
FD
E3
E9
1E
FF
EF
26
02
2B
D4
19
FB
E1
11
28
E3
F6
1E
14
F7
F8
F4
0B
E8
0A
05
D8
FE
0D
23
F6
4B
E1
09
EC
F3
F6
0A
E8
04
F8
1C
05
2D
03
20
12
F6
ED
27
EC
F4
02
01
34
20
F6
13
3E
F7
E1
39
06
F1
1A
F8
F1
D7
DC
19
26
01
D7
23
25
D4
2A
F1
E8
F7
01
0A
1A
24
DD
FF
EE
49
F1
FB
04
09
F4
20
FA
16
0B
FE
FA
F1
18
FC
F4
F9
21
F3
10
3C
29
F6
07
F2
F6
09
F0
3D
0A
0F
F0
F1
D5
EB
1D
3F
24
E7
F1
12
09
42
13
F9
F5
16
E4
FD
ED
02
EE
E6
D4
C7
36
D8
21
FD
06
50
20
0C
D0
23
EF
02
1D
23
CA
17
0F
E1
E0
11
FA
05
F5
40
F2
31
51
15
F5
07
09
F6
0B
13
0D
D9
23
1D
0C
07
11
EA
1C
44
11
1E
E7
0B
02
FF
D9
28
00
2F
10
E6
0F
18
0F
41
60
F8
F6
E1
0A
30
05
D8
27
0D
F0
3A
E6
10
E0
F7
FF
FF
C3
26
12
E9
FD
F6
E8
DA
F7
3C
13
06
EC
08
FF
F2
1D
F7
25
EB
E3
2B
E6
2B
FF
F0
F1
F8
ED
06
3E
2B
00
29
E7
D6
0B
06
F7
FF
FA
1D
F4
D0
F8
F3
57
46
EC
CC
F3
17
02
E0
EA
E1
28
D5
13
26
FD
34
0D
15
E7
17
00
20
32
25
E8
02
F3
22
1D
EC
FB
28
09
FE
2D
FE
2B
DD
09
C8
1E
2E
C9
EB
F6
FD
EC
03
13
DF
FB
0E
09
DA
EE
DF
BE
30
0D
52
E6
E8
19
BE
F2
FE
E5
14
41
49
DA
1A
B1
06
E4
DB
F2
F6
E2
C4
30
D7
18
F4
EC
1E
56
F4
44
25
1D
0D
3A
0D
05
27
20
06
1D
F7
E9
06
39
FF
F8
24
CC
14
FA
F9
1A
16
E2
F3
FA
25
FC
D6
0E
F8
F9
F1
0D
E0
35
DC
A6
23
D1
3B
F2
27
AE
E9
06
F6
03
FE
F5
0F
0C
F5
25
DC
38
F9
FD
F6
1B
F2
DF
EB
22
F4
E9
EF
CB
24
E5
FE
F2
E7
EE
F6
3F
18
14
0A
29
EF
1B
00
09
06
08
19
08
59
FB
1D
14
F8
1A
FB
03
00
E6
E1
0D
DE
CA
ED
FA
E1
DC
E6
F1
28
12
03
D4
E8
A3
ED
CD
C9
E1
31
E1
A1
EA
17
1F
DD
1A
14
F3
04
F5
14
BB
0E
14
2F
F1
04
1D
0E
11
C3
FC
EE
28
C5
F4
FD
0C
07
18
04
CD
01
F8
0C
00
E3
3E
22
49
07
EF
C4
1D
A0
AD
0A
05
B8
E7
53
5B
0A
05
05
C7
13
2D
A6
A5
BF
1E
E0
F4
C9
AB
E0
EC
CA
F7
4C
F1
13
FD
E8
25
D6
1F
DC
F3
F2
CC
E4
01
FE
2F
F1
08
1D
0E
18
FD
19
70
E0
04
23
E5
FF
E0
F9
0D
00
D1
0D
EB
0D
0B
47
04
CB
DE
B7
E0
E1
F9
B2
04
0D
E3
FC
C9
EF
E1
E1
18
15
F8
F4
1B
1B
07
12
2F
12
B9
C6
9E
FC
48
B0
C9
9C
D6
F2
81
B3
26
F6
B8
E0
FA
13
19
FA
DE
10
1B
2A
31
2B
E6
FB
13
F9
3C
37
12
02
1C
